/*
 * Copyright (c) 2026 EdgeImpulse Inc.
 *
 * Generated by Edge Impulse and licensed under the applicable Edge Impulse
 * Terms of Service. Community and Professional Terms of Service
 * (https://edgeimpulse.com/legal/terms-of-service) or Enterprise Terms of
 * Service (https://edgeimpulse.com/legal/enterprise-terms-of-service),
 * according to your product plan subscription (the “License”).
 *
 * This software, documentation and other associated files (collectively referred
 * to as the “Software”) is a single SDK variation generated by the Edge Impulse
 * platform and requires an active paid Edge Impulse subscription to use this
 * Software for any purpose.
 *
 * You may NOT use this Software unless you have an active Edge Impulse subscription
 * that meets the eligibility requirements for the applicable License, subject to
 * your full and continued compliance with the terms and conditions of the License,
 * including without limitation any usage restrictions under the applicable License.
 *
 * If you do not have an active Edge Impulse product plan subscription, or if use
 * of this Software exceeds the usage limitations of your Edge Impulse product plan
 * subscription, you are not permitted to use this Software and must immediately
 * delete and erase all copies of this Software within your control or possession.
 * Edge Impulse reserves all rights and remedies available to enforce its rights.
 *
 * Unless required by applicable law or agreed to in writing, the Software is
 * distributed on an "AS IS" BASIS, WITHOUT WARRANTIES OR CONDITIONS OF ANY KIND,
 * either express or implied. See the License for the specific language governing
 * permissions, disclaimers and limitations under the License.
 */

#ifndef _EI_CLASSIFIER_TFLITE_LEARN_893344_3_H_
#define _EI_CLASSIFIER_TFLITE_LEARN_893344_3_H_

#define EI_CLASSIFIER_TFLITE_LEARN_893344_3_ARENA_SIZE     3059
const size_t tflite_learn_893344_3_arena_size = 3059;

#if defined __GNUC__
#define ALIGN(X) __attribute__((aligned(X)))
#elif defined _MSC_VER
#define ALIGN(X) __declspec(align(X))
#elif defined __TASKING__
#define ALIGN(X) __align(X)
#else
#define ALIGN(X)
#endif

#if defined(EI_MODEL_SECTION) && (defined(__GNUC__) || defined(__clang__))
#define STRINGIZE(x) #x
#define STRINGIZE_VALUE_OF(x) STRINGIZE(x)
#define MODEL_SECTION(X) __attribute__((section(STRINGIZE_VALUE_OF(X))))
#else
#define MODEL_SECTION(X)
#endif


MODEL_SECTION(EI_MODEL_SECTION) ALIGN(16) const unsigned char tflite_learn_893344_3[] = {
  0x1c, 0x00, 0x00, 0x00, 0x54, 0x46, 0x4c, 0x33, 0x14, 0x00, 0x20, 0x00,
  0x1c, 0x00, 0x18, 0x00, 0x14, 0x00, 0x10, 0x00, 0x0c, 0x00, 0x00, 0x00,
  0x08, 0x00, 0x04, 0x00, 0x14, 0x00, 0x00, 0x00, 0x1c, 0x00, 0x00, 0x00,
  0x8c, 0x00, 0x00, 0x00, 0xe4, 0x00, 0x00, 0x00, 0x20, 0x11, 0x00, 0x00,
  0x30, 0x11, 0x00, 0x00, 0xf4, 0x17, 0x00, 0x00, 0x03, 0x00, 0x00, 0x00,
  0x01, 0x00, 0x00, 0x00, 0x10, 0x00, 0x00, 0x00, 0x00, 0x00, 0x0a, 0x00,
  0x10, 0x00, 0x0c, 0x00, 0x08, 0x00, 0x04, 0x00, 0x0a, 0x00, 0x00, 0x00,
  0x0c, 0x00, 0x00, 0x00, 0x1c, 0x00, 0x00, 0x00, 0x3c, 0x00, 0x00, 0x00,
  0x0f, 0x00, 0x00, 0x00, 0x73, 0x65, 0x72, 0x76, 0x69, 0x6e, 0x67, 0x5f,
  0x64, 0x65, 0x66, 0x61, 0x75, 0x6c, 0x74, 0x00, 0x01, 0x00, 0x00, 0x00,
  0x04, 0x00, 0x00, 0x00, 0x9c, 0xff, 0xff, 0xff, 0x0a, 0x00, 0x00, 0x00,
  0x04, 0x00, 0x00, 0x00, 0x08, 0x00, 0x00, 0x00, 0x6f, 0x75, 0x74, 0x70,
  0x75, 0x74, 0x5f, 0x30, 0x00, 0x00, 0x00, 0x00, 0x01, 0x00, 0x00, 0x00,
  0x04, 0x00, 0x00, 0x00, 0xc6, 0xee, 0xff, 0xff, 0x04, 0x00, 0x00, 0x00,
  0x01, 0x00, 0x00, 0x00, 0x78, 0x00, 0x00, 0x00, 0x02, 0x00, 0x00, 0x00,
  0x34, 0x00, 0x00, 0x00, 0x04, 0x00, 0x00, 0x00, 0xdc, 0xff, 0xff, 0xff,
  0x0d, 0x00, 0x00, 0x00, 0x04, 0x00, 0x00, 0x00, 0x13, 0x00, 0x00, 0x00,
  0x43, 0x4f, 0x4e, 0x56, 0x45, 0x52, 0x53, 0x49, 0x4f, 0x4e, 0x5f, 0x4d,
  0x45, 0x54, 0x41, 0x44, 0x41, 0x54, 0x41, 0x00, 0x08, 0x00, 0x0c, 0x00,
  0x08, 0x00, 0x04, 0x00, 0x08, 0x00, 0x00, 0x00, 0x0c, 0x00, 0x00, 0x00,
  0x04, 0x00, 0x00, 0x00, 0x13, 0x00, 0x00, 0x00, 0x6d, 0x69, 0x6e, 0x5f,
  0x72, 0x75, 0x6e, 0x74, 0x69, 0x6d, 0x65, 0x5f, 0x76, 0x65, 0x72, 0x73,
  0x69, 0x6f, 0x6e, 0x00, 0x0e, 0x00, 0x00, 0x00, 0x38, 0x10, 0x00, 0x00,
  0x30, 0x10, 0x00, 0x00, 0x18, 0x10, 0x00, 0x00, 0xf4, 0x0f, 0x00, 0x00,
  0xbc, 0x0f, 0x00, 0x00, 0x6c, 0x0e, 0x00, 0x00, 0xdc, 0x0d, 0x00, 0x00,
  0xac, 0x00, 0x00, 0x00, 0xa4, 0x00, 0x00, 0x00, 0x9c, 0x00, 0x00, 0x00,
  0x94, 0x00, 0x00, 0x00, 0x8c, 0x00, 0x00, 0x00, 0x6c, 0x00, 0x00, 0x00,
  0x04, 0x00, 0x00, 0x00, 0x6e, 0xef, 0xff, 0xff, 0x04, 0x00, 0x00, 0x00,
  0x58, 0x00, 0x00, 0x00, 0x0c, 0x00, 0x00, 0x00, 0x08, 0x00, 0x0e, 0x00,
  0x08, 0x00, 0x04, 0x00, 0x08, 0x00, 0x00, 0x00, 0x10, 0x00, 0x00, 0x00,
  0x28, 0x00, 0x00, 0x00, 0x00, 0x00, 0x06, 0x00, 0x08, 0x00, 0x04, 0x00,
  0x06, 0x00, 0x00, 0x00, 0x04, 0x00, 0x00, 0x00, 0x01, 0x00, 0x00, 0x00,
  0xeb, 0x03, 0x00, 0x00, 0x00, 0x00, 0x0a, 0x00, 0x10, 0x00, 0x0c, 0x00,
  0x08, 0x00, 0x04, 0x00, 0x0a, 0x00, 0x00, 0x00, 0x03, 0x00, 0x00, 0x00,
  0x02, 0x00, 0x00, 0x00, 0x04, 0x00, 0x00, 0x00, 0x06, 0x00, 0x00, 0x00,
  0x32, 0x2e, 0x31, 0x31, 0x2e, 0x31, 0x00, 0x00, 0xd2, 0xef, 0xff, 0xff,
  0x04, 0x00, 0x00, 0x00, 0x10, 0x00, 0x00, 0x00, 0x31, 0x2e, 0x31, 0x34,
  0x2e, 0x30, 0x00, 0x00, 0x00, 0x00, 0x00, 0x00, 0x00, 0x00, 0x00, 0x00,
  0xbc, 0xef, 0xff, 0xff, 0xc0, 0xef, 0xff, 0xff, 0xc4, 0xef, 0xff, 0xff,
  0xc8, 0xef, 0xff, 0xff, 0xfe, 0xef, 0xff, 0xff, 0x04, 0x00, 0x00, 0x00,
  0x20, 0x0d, 0x00, 0x00, 0x06, 0x89, 0xb0, 0x66, 0xf9, 0x2e, 0x3f, 0x1c,
  0x22, 0x1a, 0x23, 0xdf, 0xea, 0xa4, 0x6f, 0x9c, 0xe2, 0x57, 0xb5, 0x48,
  0x4c, 0x70, 0xcd, 0x29, 0xb9, 0x3a, 0x18, 0xdc, 0xfa, 0xdd, 0xba, 0x7b,
  0x5b, 0xf0, 0x42, 0x73, 0x1f, 0x3d, 0xba, 0x69, 0xf5, 0x24, 0x7a, 0x05,
  0xd6, 0xbf, 0x51, 0x3c, 0xd0, 0xc5, 0x26, 0x39, 0xb4, 0x00, 0x02, 0xaf,
  0x4e, 0x0b, 0x74, 0x60, 0x74, 0x11, 0xab, 0xf6, 0xd1, 0xe8, 0xa5, 0xea,
  0xf2, 0xd2, 0x0b, 0xc6, 0xee, 0xe7, 0x69, 0x3d, 0xfc, 0xf9, 0x75, 0x1d,
  0x63, 0x69, 0xf1, 0xf5, 0xb6, 0x0b, 0x00, 0x59, 0x67, 0x57, 0xd9, 0xe6,
  0x1a, 0x01, 0x6e, 0xe7, 0x2c, 0x7b, 0x3c, 0x47, 0x2e, 0xe3, 0xec, 0x5a,
  0xa2, 0x88, 0x8e, 0xf9, 0x51, 0x91, 0x2e, 0x17, 0xd2, 0xd2, 0xb1, 0x55,
  0xe8, 0x05, 0x39, 0x10, 0x35, 0x85, 0xe9, 0xf1, 0xc6, 0x5e, 0x88, 0x8d,
  0x69, 0xe9, 0xca, 0x33, 0xda, 0x1d, 0x46, 0x04, 0x41, 0xe9, 0x68, 0xb6,
  0x8c, 0x57, 0x0a, 0x20, 0xab, 0xde, 0x54, 0x59, 0x21, 0xb0, 0x40, 0xe6,
  0xb0, 0x9c, 0x86, 0xec, 0x30, 0x58, 0x37, 0xaa, 0x11, 0x86, 0x00, 0x8c,
  0x06, 0xc2, 0x67, 0x40, 0x5d, 0x94, 0xa7, 0x2a, 0xab, 0x18, 0x30, 0x6e,
  0x20, 0x17, 0x51, 0x4e, 0x19, 0xcf, 0x0d, 0xfd, 0x4d, 0x9a, 0x5e, 0x23,
  0xb4, 0x97, 0xb1, 0xcf, 0x66, 0x85, 0x24, 0xfe, 0x48, 0x65, 0x5d, 0x85,
  0xc4, 0x9e, 0xf1, 0xe1, 0x93, 0xb5, 0x47, 0x99, 0x59, 0xcd, 0x42, 0x9b,
  0xc8, 0x32, 0x3e, 0x68, 0x1f, 0xef, 0x94, 0x30, 0x1d, 0x07, 0x53, 0xbe,
  0x8d, 0x06, 0xb2, 0x98, 0x8f, 0x88, 0x34, 0x40, 0x3c, 0x19, 0x9c, 0x34,
  0x57, 0xfd, 0xfb, 0x01, 0x21, 0xc6, 0x59, 0x2c, 0x4b, 0x05, 0xe2, 0xde,
  0xd9, 0x4a, 0xd8, 0x61, 0x42, 0xfe, 0x53, 0x01, 0xc7, 0x3e, 0x61, 0x2c,
  0x28, 0x04, 0x1a, 0x30, 0xce, 0x9b, 0x0f, 0x40, 0x42, 0xe6, 0x1d, 0x52,
  0xec, 0x81, 0x2e, 0x2c, 0xcd, 0xa8, 0xfe, 0xdb, 0x00, 0x3d, 0xec, 0x31,
  0xd1, 0xbd, 0xe8, 0xf9, 0x19, 0xa3, 0x97, 0xaa, 0x8a, 0xfc, 0x1b, 0xbe,
  0x2d, 0x6c, 0x4b, 0xc3, 0x9a, 0x46, 0x91, 0xe4, 0xf4, 0xd0, 0x44, 0x8c,
  0x30, 0xe5, 0x02, 0x3e, 0xa5, 0xd4, 0x13, 0x96, 0x67, 0x69, 0xe4, 0x6c,
  0x32, 0x1f, 0x69, 0x49, 0xcd, 0xa0, 0x2d, 0x66, 0xcd, 0x69, 0x40, 0xfb,
  0x1a, 0x23, 0xf0, 0x5b, 0x37, 0x8d, 0x8f, 0x18, 0x99, 0xc2, 0x6a, 0xfa,
  0x13, 0x3e, 0x49, 0xd8, 0x95, 0x65, 0x93, 0x33, 0x92, 0x9e, 0xf6, 0xab,
  0x28, 0xc7, 0xa2, 0x9d, 0xb9, 0x5e, 0x0d, 0x96, 0x2b, 0x10, 0xb3, 0xf3,
  0xe0, 0xac, 0x3f, 0x6d, 0x93, 0xa8, 0x0e, 0xb3, 0x32, 0x63, 0xd4, 0x51,
  0xc1, 0xaf, 0x92, 0xf1, 0xe0, 0xf3, 0x13, 0xd5, 0xed, 0x41, 0x8c, 0x0f,
  0x96, 0x1a, 0xba, 0x16, 0xa2, 0xf1, 0x56, 0x93, 0xad, 0xd7, 0xef, 0x27,
  0xe8, 0x0f, 0x0e, 0xa3, 0xe1, 0x4d, 0x58, 0x55, 0x19, 0x9e, 0xf2, 0xd2,
  0x67, 0xe2, 0x19, 0xcb, 0x5c, 0xb6, 0xf0, 0x37, 0xb8, 0xc5, 0x97, 0x46,
  0xb3, 0xd6, 0x43, 0xc8, 0x19, 0xe3, 0xb7, 0xdb, 0xd9, 0xf5, 0x98, 0xce,
  0x68, 0xbb, 0xe0, 0x54, 0x9e, 0x0c, 0xed, 0xd5, 0x5f, 0x6d, 0xeb, 0xd4,
  0x8e, 0xe6, 0xb4, 0x4a, 0xe7, 0xd7, 0xd2, 0xa7, 0x02, 0x33, 0x50, 0xed,
  0xfd, 0x4e, 0x64, 0x96, 0x34, 0x9a, 0x55, 0x68, 0xc9, 0x0d, 0x93, 0x4b,
  0xe2, 0x94, 0x5f, 0xae, 0x12, 0xda, 0xbe, 0x89, 0x35, 0x68, 0x54, 0x0c,
  0xc7, 0xf6, 0xb7, 0x91, 0x6e, 0x24, 0x65, 0x63, 0xed, 0xd8, 0xe9, 0x88,
  0xc6, 0x64, 0x59, 0x1d, 0x22, 0x39, 0xac, 0x60, 0xfa, 0x5b, 0x4b, 0x26,
  0xaf, 0xc4, 0x1b, 0xd8, 0x34, 0x46, 0x1a, 0xd3, 0xd4, 0x22, 0xa0, 0xca,
  0xf9, 0xe5, 0x39, 0xf2, 0x1a, 0xa4, 0xdb, 0xf8, 0xb6, 0x1e, 0xf1, 0x9d,
  0x22, 0xb9, 0xf9, 0x00, 0x5a, 0xaa, 0x28, 0xb0, 0x28, 0x5f, 0x22, 0x28,
  0xf9, 0x63, 0x55, 0xe2, 0x23, 0xe7, 0x01, 0x02, 0x40, 0x75, 0xdc, 0x71,
  0x2e, 0x9c, 0x1c, 0x57, 0xf4, 0xe8, 0x46, 0xe7, 0xe9, 0xa6, 0x56, 0x70,
  0xad, 0xc5, 0x3f, 0xac, 0x9c, 0xc5, 0x11, 0x5c, 0x7c, 0x3b, 0x34, 0x21,
  0x95, 0xf6, 0xdb, 0xd0, 0x74, 0x20, 0x1e, 0x8e, 0xce, 0xef, 0x4f, 0x2b,
  0x02, 0x46, 0x21, 0x4c, 0x96, 0x73, 0x6c, 0xfe, 0xaa, 0xcc, 0x6b, 0xc0,
  0xe3, 0xa5, 0x39, 0x48, 0x91, 0x15, 0x45, 0x14, 0x00, 0xf8, 0xbd, 0xd4,
  0x29, 0xad, 0x9f, 0x6c, 0x49, 0x43, 0x9b, 0x34, 0xdb, 0x4b, 0x31, 0xe4,
  0x92, 0xbd, 0xc5, 0xd0, 0xd0, 0x1c, 0x31, 0x86, 0xc9, 0xb4, 0x14, 0x8d,
  0xbd, 0xca, 0x93, 0xd4, 0x9e, 0x6f, 0xfb, 0x8e, 0x5f, 0xf2, 0x56, 0xec,
  0x11, 0xd5, 0xe3, 0xcd, 0xee, 0x8d, 0xaf, 0xf8, 0xa1, 0x02, 0xb4, 0xf1,
  0xd3, 0xb4, 0x31, 0xbc, 0x2d, 0xd1, 0x04, 0xd7, 0xc4, 0x62, 0x38, 0xf5,
  0x51, 0x2b, 0xab, 0x0c, 0x51, 0xc3, 0x9a, 0x66, 0xcf, 0x95, 0xc2, 0x14,
  0x31, 0x94, 0xac, 0x69, 0xfc, 0x8f, 0xe5, 0xc4, 0x46, 0xc4, 0x13, 0x71,
  0x54, 0xbb, 0xb8, 0xa2, 0x5a, 0xf1, 0xd9, 0x04, 0xcb, 0x34, 0x4a, 0x9d,
  0x6e, 0x42, 0x61, 0xd5, 0xa7, 0x52, 0xd0, 0x0b, 0xd7, 0xf3, 0x2f, 0xbc,
  0xd7, 0xda, 0x6b, 0xc7, 0x23, 0xb6, 0x28, 0x5d, 0x53, 0xdb, 0x4b, 0xf8,
  0xe1, 0x56, 0x71, 0x4e, 0x3c, 0xde, 0xa3, 0x08, 0x35, 0xa6, 0xeb, 0x08,
  0x3e, 0x50, 0x23, 0x1d, 0xbc, 0xeb, 0x95, 0x23, 0xef, 0xb3, 0xf2, 0xab,
  0x9c, 0xc0, 0x0a, 0x55, 0x8f, 0x34, 0xa2, 0xa1, 0x9e, 0x2b, 0x18, 0x44,
  0xfa, 0xe9, 0x9c, 0xa2, 0xf0, 0xf5, 0x25, 0x7b, 0x69, 0x79, 0xfe, 0xc7,
  0xa8, 0x11, 0x54, 0x07, 0xab, 0x15, 0x77, 0xdf, 0xb3, 0xe6, 0xfc, 0x75,
  0xf7, 0x4f, 0x79, 0x26, 0x29, 0x1b, 0xba, 0xb0, 0x0c, 0x03, 0xe1, 0x18,
  0xee, 0x0b, 0xc1, 0xef, 0x05, 0x48, 0x6a, 0xb6, 0xed, 0x5f, 0x47, 0x51,
  0xd3, 0x2e, 0x5f, 0xd5, 0xac, 0x3d, 0x0b, 0xd9, 0x2e, 0x77, 0xca, 0xf5,
  0x95, 0x42, 0x24, 0x9f, 0x38, 0xe7, 0xdf, 0xa1, 0xd1, 0xef, 0xf5, 0x8c,
  0xc4, 0xd0, 0x28, 0xc1, 0xda, 0x65, 0x25, 0x42, 0xc2, 0xc2, 0x9d, 0x25,
  0xea, 0x8b, 0x43, 0x8f, 0xc6, 0xbe, 0xa2, 0xc1, 0xb1, 0x55, 0xbd, 0xe5,
  0x90, 0xdb, 0xe9, 0x08, 0x70, 0x39, 0x9c, 0xb6, 0x00, 0xfa, 0x25, 0xdb,
  0x98, 0x0c, 0xdf, 0x85, 0xd8, 0xb2, 0xbf, 0xe5, 0x44, 0xb4, 0xfe, 0x3b,
  0x1f, 0x61, 0x43, 0x0b, 0x63, 0xa1, 0xdf, 0x92, 0xe4, 0x06, 0xcc, 0x56,
  0x1e, 0x3b, 0x0d, 0xc7, 0x18, 0xaa, 0xb7, 0x4a, 0x11, 0xba, 0xff, 0xed,
  0x91, 0x95, 0x3b, 0xe7, 0xac, 0xa8, 0xe1, 0x73, 0x0f, 0x42, 0xa0, 0xe3,
  0x4f, 0x98, 0xbe, 0xc0, 0x21, 0x6f, 0xbd, 0xac, 0x42, 0xba, 0xce, 0xaf,
  0x5e, 0xa6, 0x5b, 0xf2, 0xab, 0xda, 0xc8, 0xbd, 0x27, 0x3e, 0xb3, 0xfb,
  0x7c, 0xdb, 0xa6, 0xb0, 0x7c, 0xf1, 0x6b, 0x79, 0xf7, 0xb0, 0x55, 0x22,
  0xc2, 0x58, 0x20, 0x77, 0xb1, 0x94, 0x11, 0x6b, 0x9d, 0x3e, 0xd8, 0x28,
  0x48, 0x63, 0xe2, 0x98, 0x3f, 0x0a, 0x60, 0x65, 0x3d, 0x62, 0x6e, 0x19,
  0xb3, 0xf6, 0x5e, 0x43, 0xcd, 0xe0, 0xaf, 0xda, 0x40, 0x2c, 0x20, 0x61,
  0x5b, 0x04, 0x19, 0xcb, 0x2a, 0x0f, 0x17, 0x5c, 0xfa, 0x46, 0x9c, 0xd7,
  0xdd, 0x35, 0xae, 0xce, 0x65, 0xe4, 0xe2, 0x75, 0x3e, 0xcd, 0xde, 0xab,
  0xde, 0x0f, 0x6d, 0xf5, 0x66, 0x03, 0x9a, 0x11, 0x4e, 0xc6, 0xcd, 0x3d,
  0xca, 0xd8, 0x6c, 0x5e, 0x34, 0xeb, 0x46, 0x1f, 0x93, 0x9d, 0x79, 0x99,
  0x0f, 0x95, 0xbb, 0x01, 0xb0, 0x93, 0x4c, 0xaf, 0x05, 0x07, 0xa9, 0x1c,
  0xc6, 0x66, 0x75, 0xa5, 0x23, 0x3c, 0xa9, 0xef, 0xb7, 0x35, 0xab, 0x32,
  0x99, 0x51, 0xa1, 0x7b, 0x4b, 0x42, 0x3a, 0x4e, 0x50, 0xba, 0x10, 0xb5,
  0x12, 0xb9, 0x25, 0x20, 0x50, 0xc9, 0x50, 0xed, 0xf3, 0x3f, 0x64, 0xe5,
  0xd6, 0x32, 0xd0, 0xe6, 0x6b, 0xdb, 0xb5, 0x2b, 0x72, 0xb2, 0xc5, 0x2e,
  0x7b, 0xc2, 0x21, 0x3f, 0x6c, 0x9d, 0x00, 0xb5, 0x30, 0xb6, 0x3f, 0xdb,
  0xa3, 0xcf, 0x7e, 0xc3, 0xaa, 0xf0, 0x3e, 0x48, 0xbf, 0x3e, 0xf6, 0xf8,
  0x4b, 0x65, 0x4a, 0xf5, 0xf1, 0xa4, 0xbd, 0x4f, 0xfe, 0x3d, 0x33, 0xc3,
  0xd5, 0x73, 0x63, 0x20, 0xfa, 0xd4, 0xd3, 0xf9, 0xc2, 0x89, 0x29, 0x2b,
  0x60, 0x69, 0x37, 0x38, 0x08, 0xda, 0x31, 0x50, 0xbe, 0x66, 0x2d, 0xb6,
  0xdf, 0xf8, 0xb8, 0x0d, 0x4f, 0x21, 0x29, 0x10, 0x3c, 0x0a, 0xb6, 0xfd,
  0x9d, 0xa4, 0xbe, 0xff, 0x1c, 0x40, 0x3e, 0xcd, 0x59, 0xe1, 0xb1, 0x5c,
  0x4c, 0xc5, 0x7f, 0x99, 0xc9, 0x22, 0x5d, 0x4c, 0xa4, 0x3f, 0x5b, 0x78,
  0x9b, 0x72, 0xfc, 0x38, 0x7e, 0xc5, 0x2b, 0x3c, 0x63, 0x3d, 0x4d, 0x58,
  0x52, 0x16, 0x37, 0xde, 0x7e, 0x38, 0x06, 0xae, 0xf3, 0xd3, 0x7e, 0x0e,
  0xe0, 0x35, 0xa1, 0x7e, 0xdd, 0xe6, 0x1c, 0x18, 0xb3, 0x13, 0x1b, 0x4d,
  0x33, 0x56, 0xd9, 0x18, 0x20, 0x96, 0xfb, 0xbe, 0x37, 0x16, 0x04, 0x72,
  0x69, 0x4b, 0xdf, 0x52, 0xc1, 0x16, 0xfe, 0x40, 0xad, 0x99, 0xd6, 0xd3,
  0xcd, 0x5f, 0x07, 0xef, 0xd3, 0x49, 0x0d, 0x34, 0x4e, 0x54, 0x94, 0x1e,
  0x89, 0xd4, 0xbc, 0x5d, 0xaf, 0xec, 0x94, 0x4f, 0x1c, 0x5f, 0xe8, 0x42,
  0xea, 0xaf, 0x43, 0xa7, 0x64, 0xb5, 0xde, 0xa7, 0x0a, 0xc5, 0xcc, 0xbb,
  0x95, 0x2d, 0x28, 0x35, 0xc2, 0x57, 0x0a, 0x31, 0xd1, 0x10, 0xea, 0xfc,
  0xcc, 0x69, 0xdd, 0x89, 0x22, 0xa2, 0xc2, 0xb2, 0x34, 0xf6, 0x8a, 0x67,
  0xef, 0x1a, 0xfb, 0x2c, 0x2f, 0xaf, 0x1d, 0x3a, 0xb3, 0xeb, 0x8c, 0xfe,
  0xb8, 0xd4, 0x57, 0xd7, 0xbb, 0x38, 0x8e, 0x91, 0xf4, 0xb1, 0xce, 0x54,
  0x42, 0xb7, 0x3f, 0xf6, 0x31, 0xc6, 0x8f, 0xf8, 0x51, 0x90, 0x52, 0x8e,
  0xa7, 0x15, 0x15, 0x5a, 0x3e, 0x1b, 0xea, 0x8d, 0x6b, 0xdb, 0xbc, 0x85,
  0xd7, 0xbb, 0x46, 0xe5, 0xc9, 0x1b, 0x21, 0x31, 0x69, 0xa5, 0x18, 0x70,
  0x55, 0xc9, 0x69, 0xad, 0xda, 0x87, 0xac, 0x71, 0x62, 0xb9, 0x8c, 0x86,
  0x10, 0x44, 0xd0, 0xbe, 0xec, 0x46, 0xcf, 0xfc, 0x2a, 0xb8, 0x44, 0x86,
  0x17, 0xd8, 0x62, 0xca, 0xbe, 0x0e, 0x53, 0xa5, 0xf4, 0x09, 0x6c, 0xed,
  0x3f, 0xca, 0xfc, 0x93, 0xa4, 0xee, 0xb5, 0x6f, 0x6b, 0x29, 0x98, 0xb1,
  0x52, 0x2a, 0x39, 0xa7, 0xf4, 0x9e, 0x60, 0x2e, 0x26, 0x24, 0x04, 0x2c,
  0xd9, 0x41, 0x2e, 0x54, 0xe1, 0xac, 0xc8, 0xdb, 0x63, 0x2d, 0xf2, 0xd5,
  0xa3, 0x4f, 0xdd, 0x36, 0xc7, 0xe4, 0x37, 0xf7, 0x89, 0x11, 0x71, 0xd3,
  0x89, 0xd8, 0x69, 0x3e, 0x02, 0xda, 0xac, 0x58, 0x9f, 0x7a, 0x33, 0x3d,
  0xac, 0x99, 0x7c, 0xe6, 0x57, 0x54, 0xd1, 0xac, 0x64, 0xac, 0xae, 0x91,
  0xfe, 0x44, 0x58, 0xa9, 0x95, 0xba, 0xa3, 0xff, 0xa7, 0x6f, 0x3f, 0x4f,
  0x2c, 0x18, 0x17, 0x9e, 0xa7, 0x28, 0x96, 0x70, 0x28, 0x2a, 0xbd, 0xc1,
  0x44, 0x0d, 0x04, 0x56, 0x05, 0xa6, 0xb3, 0x64, 0xca, 0x56, 0x61, 0x9f,
  0xbf, 0x4f, 0xb4, 0xa6, 0xf7, 0xb2, 0x10, 0x43, 0x78, 0x1c, 0xa4, 0x69,
  0x38, 0xcb, 0xa7, 0x1c, 0x3f, 0x54, 0x71, 0x39, 0xd1, 0x99, 0x40, 0x71,
  0x57, 0x2a, 0xb1, 0x70, 0x57, 0x58, 0x2b, 0xd6, 0xcb, 0x5e, 0xd8, 0xcd,
  0x14, 0xb1, 0x30, 0xef, 0xaa, 0x11, 0xf2, 0xf8, 0x22, 0xcb, 0x91, 0x6a,
  0x24, 0xe0, 0x56, 0x63, 0xdf, 0x0c, 0xaa, 0x19, 0xe0, 0xcd, 0x14, 0xd8,
  0xc8, 0x26, 0x29, 0xcf, 0xce, 0x21, 0x17, 0x49, 0x3d, 0x6f, 0x3b, 0xd5,
  0xae, 0xa3, 0xa8, 0x2e, 0x20, 0x9f, 0x5d, 0x4a, 0x67, 0x38, 0x4d, 0x0c,
  0x14, 0xa9, 0xdd, 0xbc, 0x57, 0xf7, 0x21, 0x57, 0x6a, 0xa7, 0x3e, 0x95,
  0x90, 0xcb, 0x3c, 0xdb, 0x0b, 0xa1, 0xcc, 0x98, 0xfe, 0xb3, 0xf1, 0xb5,
  0x49, 0xc5, 0xa7, 0x97, 0x0c, 0x85, 0x67, 0x16, 0x02, 0xf3, 0xba, 0xec,
  0xbf, 0xd9, 0xb3, 0xd8, 0x3d, 0xfc, 0xe1, 0xbf, 0xba, 0x01, 0xcb, 0x08,
  0xcd, 0x59, 0xf4, 0x54, 0xbe, 0xb0, 0xca, 0x40, 0x8f, 0x70, 0x99, 0xb9,
  0x14, 0xd5, 0x2d, 0xa9, 0xfb, 0x48, 0x28, 0x93, 0xdd, 0x24, 0x01, 0x93,
  0x38, 0x39, 0x9d, 0x6e, 0x5f, 0x3d, 0xe8, 0x2c, 0x4f, 0xab, 0xdc, 0xaf,
  0x57, 0x9b, 0xb3, 0xae, 0x3f, 0xfb, 0x91, 0x96, 0xcd, 0x41, 0xf3, 0x8f,
  0x29, 0x10, 0x6b, 0xe8, 0xf2, 0x32, 0xa6, 0x65, 0xa7, 0x5e, 0x5c, 0x49,
  0x18, 0xbd, 0xd5, 0x4a, 0x52, 0xcb, 0x13, 0x9e, 0xe2, 0x52, 0xa5, 0x67,
  0xf9, 0xbe, 0x0d, 0xfd, 0x04, 0x2e, 0xf2, 0x3f, 0xd8, 0x62, 0xdd, 0xba,
  0x0d, 0xf5, 0x4a, 0x5d, 0xd1, 0xd3, 0xeb, 0x32, 0xfe, 0x85, 0x28, 0x9f,
  0x64, 0x90, 0x67, 0xf3, 0xe0, 0x4a, 0x19, 0x34, 0x14, 0x08, 0xc0, 0x2d,
  0xb7, 0x88, 0x34, 0x4f, 0xc4, 0x54, 0x3e, 0xa5, 0x92, 0x0d, 0xd2, 0x89,
  0xd3, 0xef, 0x9f, 0xd8, 0x79, 0x7b, 0x2e, 0xa2, 0x17, 0x26, 0x04, 0xb6,
  0x59, 0xf2, 0xa8, 0xcb, 0xc5, 0x0b, 0xe9, 0x0e, 0xf9, 0x08, 0x58, 0xa8,
  0xfc, 0x6b, 0x97, 0xc6, 0x49, 0xcb, 0xb7, 0xac, 0x42, 0x0b, 0xce, 0x4c,
  0x5b, 0x97, 0xe6, 0xdc, 0xa8, 0xed, 0x97, 0x46, 0x76, 0xd0, 0x50, 0xf1,
  0xe1, 0xd0, 0x06, 0xa7, 0xa1, 0x3b, 0x19, 0xfd, 0x20, 0x63, 0x6e, 0x43,
  0xf9, 0x35, 0xaa, 0x1b, 0x69, 0xc0, 0xc0, 0x8d, 0xed, 0x34, 0xf9, 0x5f,
  0x60, 0x18, 0xc2, 0xbd, 0xc0, 0xcc, 0x3c, 0x1b, 0xd9, 0x72, 0xcd, 0x4b,
  0xff, 0x67, 0x70, 0x13, 0x91, 0xef, 0xbe, 0x3b, 0x69, 0xd2, 0x6a, 0x1c,
  0x8c, 0x63, 0x46, 0xeb, 0xf7, 0xa2, 0x31, 0x9f, 0x07, 0xbd, 0xa6, 0x32,
  0x2c, 0xc1, 0x5b, 0x05, 0xaf, 0xb3, 0x79, 0xf5, 0x0e, 0x2e, 0x79, 0x77,
  0x52, 0xd2, 0xcd, 0xc9, 0xe4, 0x99, 0xba, 0x7a, 0xa0, 0x1f, 0x79, 0xaf,
  0x0b, 0x2f, 0x4d, 0xc7, 0xa9, 0xe2, 0xf2, 0xf3, 0xf9, 0xba, 0x1b, 0x63,
  0x36, 0xbe, 0x43, 0x9f, 0xe5, 0x47, 0x70, 0x60, 0x05, 0xa4, 0x26, 0xd5,
  0x29, 0x2b, 0x12, 0xab, 0x26, 0x02, 0x05, 0x22, 0x48, 0x96, 0x46, 0x9d,
  0x94, 0x71, 0xe4, 0xcb, 0x07, 0x0f, 0xbf, 0x43, 0x95, 0x8f, 0x30, 0xa5,
  0xe0, 0x6f, 0xc2, 0x6f, 0xad, 0x3c, 0x0d, 0x51, 0x1c, 0x04, 0x63, 0x25,
  0x6e, 0xf5, 0x31, 0x90, 0x65, 0xf7, 0xda, 0x57, 0x64, 0x61, 0xc2, 0x45,
  0x46, 0xc7, 0x22, 0x5f, 0x01, 0xc8, 0x43, 0xf7, 0x65, 0xf4, 0x20, 0x2f,
  0x51, 0x5f, 0x33, 0x32, 0x8a, 0xf6, 0x62, 0xad, 0x5b, 0xf5, 0xf0, 0x43,
  0x5a, 0xb9, 0x65, 0x5c, 0x18, 0x6b, 0x8c, 0xd1, 0xac, 0x5d, 0x68, 0xb1,
  0x95, 0xee, 0xa0, 0xe1, 0x5f, 0xae, 0x38, 0x0a, 0x68, 0xb4, 0xa7, 0xa5,
  0x47, 0xb1, 0x48, 0x0f, 0xd7, 0x58, 0xdf, 0x17, 0x33, 0x55, 0x9a, 0xe7,
  0x55, 0x2f, 0x1d, 0x34, 0x9a, 0x44, 0xc6, 0xab, 0xe5, 0xd1, 0x5e, 0x91,
  0xe2, 0x03, 0x0d, 0xb5, 0x99, 0x97, 0x97, 0x93, 0x99, 0x2c, 0x70, 0x03,
  0x99, 0xde, 0x97, 0xbb, 0xb1, 0xdc, 0x5e, 0x3e, 0x2f, 0xbf, 0x3e, 0x1a,
  0x55, 0xf8, 0xf9, 0xd0, 0x9d, 0xc5, 0xdf, 0xe6, 0x22, 0x48, 0xcf, 0x9b,
  0x01, 0xbc, 0xd7, 0x24, 0xf4, 0xfb, 0xa4, 0xe6, 0xbd, 0xa5, 0xe7, 0xb8,
  0x3b, 0xcf, 0x55, 0x63, 0xf3, 0xbd, 0x31, 0x4d, 0x09, 0x98, 0x56, 0x94,
  0xa2, 0x4a, 0xde, 0x9e, 0x0d, 0xf8, 0xa4, 0x43, 0xa5, 0xf3, 0xae, 0x50,
  0xa7, 0xaa, 0x3a, 0x5c, 0xe6, 0x9c, 0x66, 0xd3, 0xb2, 0x52, 0x90, 0x73,
  0xe1, 0xe4, 0x23, 0xdb, 0x23, 0x66, 0xff, 0x66, 0x29, 0x53, 0x2e, 0x96,
  0xb0, 0x20, 0x18, 0xfb, 0x40, 0x4e, 0xea, 0xf4, 0x36, 0xd3, 0xfc, 0xb5,
  0xbf, 0x50, 0x4f, 0xb4, 0xd2, 0x6b, 0xe5, 0x05, 0x2b, 0x9e, 0x18, 0x75,
  0xf0, 0xf9, 0x2e, 0x1a, 0xfe, 0x72, 0x5a, 0x24, 0xe7, 0xc3, 0xea, 0x90,
  0x9d, 0x13, 0x42, 0x44, 0xfa, 0x5e, 0x64, 0xed, 0x58, 0x8e, 0x92, 0xbd,
  0x24, 0xf2, 0xc3, 0xdd, 0xd6, 0xfa, 0x66, 0x10, 0x87, 0x4d, 0x56, 0x34,
  0x9b, 0xa0, 0xc9, 0x68, 0x33, 0xab, 0xc2, 0xb6, 0xda, 0x6b, 0xea, 0x4a,
  0xbb, 0x0b, 0xbb, 0x5b, 0x0e, 0xad, 0x2a, 0xfa, 0x20, 0x21, 0x39, 0x10,
  0x57, 0x3d, 0x23, 0xa2, 0x56, 0xfc, 0x59, 0x5f, 0xd9, 0x48, 0xf3, 0x31,
  0xec, 0xa3, 0x4b, 0x86, 0xd8, 0xf1, 0x67, 0xbc, 0xde, 0x02, 0xb3, 0xbe,
  0x65, 0x9b, 0xfc, 0xea, 0x2a, 0xd0, 0x31, 0xfb, 0x23, 0x87, 0xbb, 0x1d,
  0xb4, 0x3e, 0x6e, 0x35, 0x8d, 0xc5, 0xff, 0x2c, 0xd4, 0x67, 0x9a, 0xb0,
  0x56, 0x2f, 0xd6, 0xc3, 0x3b, 0x8f, 0xf5, 0x43, 0x2f, 0x60, 0xf4, 0x8f,
  0xce, 0xe9, 0xd7, 0x27, 0xe4, 0x9c, 0x35, 0x47, 0x50, 0xbf, 0xf7, 0xbf,
  0xb2, 0x11, 0x1a, 0xfd, 0x78, 0x08, 0xb5, 0xc3, 0x4c, 0x48, 0xcf, 0x68,
  0x63, 0xea, 0xf5, 0x66, 0xb6, 0xaa, 0xb3, 0xf5, 0x9d, 0xb7, 0x28, 0x43,
  0x95, 0xcc, 0xf5, 0x97, 0xe8, 0xef, 0xa2, 0xc2, 0x6e, 0x15, 0x62, 0xb0,
  0xc7, 0x53, 0x4b, 0x6c, 0xb0, 0x6f, 0x14, 0x6a, 0x6b, 0x3d, 0x1c, 0x7a,
  0xc7, 0xb7, 0xc4, 0x1c, 0x25, 0x07, 0xd1, 0xd9, 0xe1, 0x0e, 0x41, 0x64,
  0xc1, 0x7b, 0x37, 0xd9, 0x4f, 0xc8, 0x48, 0x0b, 0xaa, 0x96, 0x3b, 0x37,
  0xc3, 0x66, 0xfb, 0xdc, 0x78, 0x22, 0x00, 0xde, 0xfc, 0x00, 0x2b, 0x5c,
  0xa4, 0x33, 0xe3, 0x27, 0x07, 0x31, 0x61, 0xe9, 0x45, 0x11, 0x44, 0x1b,
  0xd7, 0x08, 0x58, 0x0a, 0x4f, 0xa1, 0xbe, 0x36, 0xab, 0x6c, 0xd3, 0xcc,
  0x96, 0xf1, 0xcf, 0xf7, 0x2e, 0xc0, 0x23, 0x5a, 0x8f, 0xfe, 0x36, 0xc6,
  0x8c, 0x58, 0xe2, 0xc7, 0xf2, 0xe6, 0x14, 0x3a, 0x42, 0x1e, 0x23, 0x9c,
  0x30, 0x30, 0x2a, 0xe3, 0x21, 0x3d, 0x88, 0xa8, 0xb9, 0x47, 0xd9, 0x90,
  0x0b, 0xc2, 0xb3, 0xfd, 0xa6, 0x29, 0xce, 0x86, 0x0c, 0x44, 0x08, 0x16,
  0x23, 0x2f, 0xca, 0xf6, 0x09, 0xe1, 0x1c, 0xe2, 0x39, 0xd6, 0x54, 0x4d,
  0xf4, 0x0d, 0x67, 0x40, 0x14, 0x4d, 0x45, 0x60, 0xb7, 0x22, 0x55, 0xe9,
  0x24, 0x45, 0xa0, 0x1f, 0xe4, 0xe0, 0x3b, 0x12, 0x12, 0x08, 0xe9, 0xae,
  0x2b, 0x15, 0x6a, 0x47, 0x27, 0xb8, 0x63, 0x42, 0xcc, 0xe5, 0xe1, 0x2f,
  0x9c, 0xe4, 0x9c, 0xb4, 0x0f, 0xd3, 0x9e, 0x1a, 0x87, 0x3e, 0x92, 0x3d,
  0xe0, 0x50, 0x45, 0x2c, 0x65, 0x5b, 0x43, 0xff, 0xe5, 0x5c, 0x16, 0x15,
  0xa5, 0xd6, 0x94, 0xef, 0xb0, 0x1c, 0x0d, 0x93, 0xd0, 0x3b, 0x48, 0x01,
  0x6d, 0x97, 0x86, 0x51, 0x4d, 0x4d, 0x08, 0x49, 0x3a, 0xfa, 0x41, 0x14,
  0xc1, 0x20, 0x4f, 0xa3, 0xe9, 0x93, 0x88, 0x82, 0x5b, 0x82, 0xb4, 0xce,
  0x06, 0x8e, 0xeb, 0x8e, 0xde, 0x5f, 0xa7, 0x0f, 0x1d, 0xbb, 0x2f, 0x16,
  0x53, 0xd1, 0xf3, 0x90, 0x28, 0x88, 0x39, 0xd9, 0xb1, 0x36, 0x42, 0x39,
  0x27, 0xe3, 0x82, 0x56, 0x64, 0x34, 0x66, 0x5c, 0xaa, 0xda, 0x88, 0x67,
  0x8f, 0xc6, 0xa4, 0xab, 0xf2, 0x86, 0x85, 0xc0, 0x42, 0xe0, 0xda, 0xa3,
  0x6b, 0x50, 0x6b, 0xc0, 0x1e, 0x66, 0x13, 0xcf, 0x83, 0x40, 0xa6, 0x1b,
  0x66, 0xe1, 0x59, 0xd2, 0xdb, 0xbe, 0xf6, 0xe7, 0x88, 0xb3, 0x04, 0x49,
  0x19, 0xd6, 0x27, 0x70, 0xc9, 0x50, 0x3c, 0x44, 0xc3, 0x88, 0xeb, 0xcc,
  0xea, 0xe6, 0x9d, 0xcc, 0xa1, 0xf8, 0xeb, 0xa8, 0x61, 0xe2, 0xa2, 0x2f,
  0x65, 0xf1, 0xb5, 0x24, 0x91, 0xa6, 0xe1, 0x5c, 0xe4, 0xf7, 0xd7, 0xff,
  0xa5, 0x1f, 0x62, 0x42, 0xf8, 0xa3, 0x0c, 0x9b, 0x28, 0xd8, 0x8f, 0x3c,
  0xaf, 0x61, 0xa3, 0x93, 0x39, 0x16, 0xb8, 0xf6, 0x53, 0x8f, 0x36, 0xce,
  0x67, 0x8d, 0xa0, 0x13, 0x53, 0xee, 0x88, 0xb8, 0x1a, 0x86, 0xc4, 0xa2,
  0x90, 0x1c, 0x9b, 0xaa, 0xc8, 0x87, 0x87, 0xfc, 0xa1, 0x95, 0xe5, 0x3a,
  0xa4, 0x4d, 0x2d, 0x10, 0x99, 0x25, 0xc2, 0xd8, 0xcb, 0xc6, 0xa2, 0x46,
  0x5a, 0xfb, 0x01, 0x59, 0xcb, 0xc6, 0xf7, 0x79, 0xe4, 0x49, 0x99, 0x1e,
  0xbe, 0xdf, 0xc9, 0xba, 0xed, 0x0c, 0xef, 0x42, 0xb9, 0x67, 0xdc, 0x1a,
  0xed, 0x69, 0x25, 0x6c, 0x3b, 0x00, 0xbe, 0x3d, 0x97, 0x25, 0xcd, 0x0f,
  0x4d, 0x6c, 0xd3, 0xe9, 0x0f, 0xd4, 0x96, 0x3c, 0x7a, 0x02, 0xbf, 0x74,
  0x68, 0xca, 0x5b, 0xf3, 0xc9, 0x5f, 0xce, 0x02, 0x92, 0xc2, 0xda, 0xe9,
  0x63, 0x1e, 0xe6, 0x66, 0x24, 0x74, 0xa4, 0x9e, 0xac, 0x40, 0x42, 0x39,
  0xd5, 0xd5, 0x70, 0xca, 0x11, 0x23, 0x34, 0x36, 0xb1, 0x67, 0x03, 0xd4,
  0x60, 0xa3, 0x2d, 0x30, 0xfc, 0xd3, 0x24, 0x85, 0x0a, 0xa8, 0xee, 0x0c,
  0x5b, 0x9a, 0x43, 0x2a, 0x54, 0xba, 0xba, 0xde, 0xad, 0x2b, 0x68, 0xad,
  0x6e, 0xc4, 0xd0, 0x92, 0x03, 0xa7, 0x0e, 0x60, 0x1a, 0x18, 0xbb, 0xf4,
  0xdb, 0x31, 0x16, 0x1c, 0x15, 0xb6, 0x48, 0xb3, 0x5d, 0x69, 0xc8, 0x18,
  0xe5, 0xe0, 0x3b, 0x57, 0x27, 0xdf, 0x2b, 0x22, 0x24, 0x84, 0xf5, 0x8b,
  0xee, 0x35, 0xcf, 0x8b, 0x86, 0x58, 0x4b, 0x94, 0x6e, 0xea, 0x56, 0xd5,
  0xd0, 0x89, 0xf8, 0x97, 0x95, 0x2c, 0x35, 0x97, 0x4c, 0xee, 0x18, 0x2b,
  0xf0, 0xf7, 0xc1, 0xe3, 0xa5, 0x29, 0xe2, 0xc9, 0xdf, 0xbb, 0xf0, 0x16,
  0xf1, 0x42, 0xa6, 0xa8, 0xdc, 0xd0, 0x3c, 0xff, 0x33, 0xb9, 0x99, 0x96,
  0x53, 0x92, 0xd1, 0x46, 0x77, 0x5d, 0x41, 0x69, 0xb3, 0xf4, 0x30, 0x23,
  0xb6, 0x31, 0xd0, 0xce, 0x3c, 0xee, 0xd4, 0x50, 0xcc, 0x67, 0x3a, 0x04,
  0x04, 0x37, 0x63, 0x1e, 0x09, 0xc9, 0xe2, 0x90, 0x5b, 0x9a, 0x29, 0x99,
  0x91, 0xe5, 0x96, 0x3e, 0x46, 0xd4, 0x6f, 0x0c, 0x98, 0x2d, 0x11, 0xa2,
  0xef, 0xa9, 0xc7, 0xd9, 0xce, 0x1e, 0xc3, 0x2a, 0x74, 0x1f, 0xbf, 0x47,
  0xec, 0x1e, 0x28, 0xcf, 0x23, 0xd9, 0xb6, 0x21, 0xf7, 0x5a, 0x0a, 0x41,
  0xba, 0x23, 0x3d, 0x6a, 0xc2, 0xc8, 0xa4, 0x64, 0x73, 0x2d, 0x74, 0x9f,
  0x5f, 0xc3, 0x63, 0xeb, 0x08, 0x6d, 0x08, 0x4e, 0x4f, 0xd5, 0x14, 0x3b,
  0xdf, 0xf5, 0xef, 0xb5, 0xd9, 0xb1, 0x6c, 0xe5, 0x10, 0xd6, 0xb1, 0x1c,
  0x97, 0x39, 0x08, 0x65, 0x10, 0x66, 0x8d, 0x35, 0x6b, 0x18, 0xdc, 0x49,
  0xbf, 0xaa, 0xf9, 0x79, 0x54, 0x59, 0xf0, 0xed, 0xac, 0x00, 0xe0, 0x39,
  0x34, 0xa2, 0x35, 0x55, 0x65, 0xad, 0x73, 0xa8, 0xf7, 0xaf, 0x37, 0xac,
  0x12, 0xa0, 0x00, 0x51, 0x74, 0xe8, 0x92, 0x1c, 0x72, 0xda, 0x09, 0x63,
  0xc5, 0x4f, 0xab, 0x76, 0x05, 0x44, 0x27, 0x21, 0x1a, 0x29, 0xb7, 0x0b,
  0x44, 0x98, 0x9e, 0x1b, 0x64, 0xbd, 0x00, 0xbb, 0xe5, 0xf9, 0xcf, 0xd1,
  0x68, 0x3f, 0x25, 0xf5, 0x92, 0xca, 0x70, 0xf2, 0x69, 0x33, 0xe2, 0x22,
  0x1a, 0xec, 0x01, 0x4c, 0x67, 0x04, 0x55, 0x2f, 0x3c, 0x44, 0x5c, 0x66,
  0xaa, 0x56, 0xc0, 0xd5, 0xc9, 0x90, 0xd1, 0x10, 0x75, 0xcd, 0x1d, 0xad,
  0x04, 0xde, 0xf9, 0x2a, 0x15, 0x9c, 0x2f, 0xc3, 0xfe, 0x30, 0x62, 0xcc,
  0x5c, 0xea, 0x38, 0x5a, 0x4d, 0xcc, 0xe3, 0xd6, 0xa0, 0xa0, 0xd6, 0xef,
  0xeb, 0xeb, 0x70, 0x1a, 0x2c, 0xe6, 0x24, 0x25, 0xad, 0xd0, 0xe4, 0x02,
  0x57, 0x60, 0x91, 0xc2, 0xed, 0x15, 0x41, 0xd2, 0x9e, 0xcf, 0x35, 0x29,
  0xb0, 0xfd, 0x16, 0x48, 0x0c, 0xc5, 0x61, 0xed, 0xda, 0xab, 0x29, 0x21,
  0x92, 0x04, 0x0b, 0xc9, 0x52, 0xd0, 0xf8, 0x0c, 0x39, 0x9f, 0x70, 0x9f,
  0x98, 0x9f, 0x91, 0xae, 0xf3, 0xcf, 0x97, 0xb7, 0xf7, 0x4a, 0xbc, 0x94,
  0x25, 0xd5, 0xcd, 0xcb, 0x8b, 0x06, 0x3e, 0xa9, 0x26, 0x5d, 0x6d, 0xd7,
  0x47, 0xeb, 0x96, 0x65, 0xa0, 0xce, 0x72, 0x2f, 0x41, 0x8b, 0x27, 0xf8,
  0xec, 0x65, 0xc6, 0xbb, 0xd8, 0xde, 0x51, 0x9c, 0xc9, 0xab, 0x36, 0x4d,
  0xf1, 0x21, 0x19, 0xd7, 0x16, 0x07, 0x57, 0xf9, 0x5b, 0x61, 0x5a, 0x1f,
  0x27, 0xfd, 0x03, 0x5a, 0xe2, 0xcc, 0xf0, 0xf2, 0xfb, 0x41, 0x2f, 0x4e,
  0xa3, 0x12, 0xc1, 0x55, 0xc1, 0x2e, 0xd6, 0xca, 0xd4, 0x71, 0xe4, 0x7d,
  0x38, 0xfb, 0x53, 0x2e, 0x20, 0xa7, 0xa6, 0x54, 0xeb, 0x60, 0x02, 0xad,
  0x34, 0xe7, 0x7b, 0xc4, 0x5f, 0x2d, 0x67, 0xd1, 0xdb, 0x00, 0x71, 0x2d,
  0x34, 0xb9, 0x08, 0x5e, 0x9e, 0x1f, 0xb9, 0x7c, 0x60, 0x56, 0xc9, 0x4a,
  0x26, 0x9d, 0xb8, 0xff, 0x45, 0x42, 0x10, 0x2f, 0xce, 0xf2, 0x45, 0xe6,
  0x4e, 0x11, 0x91, 0x4a, 0x2a, 0xfd, 0xff, 0xff, 0x04, 0x00, 0x00, 0x00,
  0x80, 0x00, 0x00, 0x00, 0x83, 0x00, 0x00, 0x00, 0x79, 0x00, 0x00, 0x00,
  0xda, 0xff, 0xff, 0xff, 0xb7, 0x00, 0x00, 0x00, 0xfd, 0xff, 0xff, 0xff,
  0x1e, 0x00, 0x00, 0x00, 0x96, 0x00, 0x00, 0x00, 0xb2, 0xff, 0xff, 0xff,
  0x9b, 0x00, 0x00, 0x00, 0x6f, 0x00, 0x00, 0x00, 0x18, 0x00, 0x00, 0x00,
  0xbd, 0x00, 0x00, 0x00, 0xb8, 0x00, 0x00, 0x00, 0xba, 0xff, 0xff, 0xff,
  0xca, 0xff, 0xff, 0xff, 0xac, 0x00, 0x00, 0x00, 0x39, 0x00, 0x00, 0x00,
  0x03, 0x00, 0x00, 0x00, 0x20, 0x00, 0x00, 0x00, 0x6d, 0x00, 0x00, 0x00,
  0xa4, 0xff, 0xff, 0xff, 0xba, 0xff, 0xff, 0xff, 0x96, 0x00, 0x00, 0x00,
  0x8e, 0xff, 0xff, 0xff, 0xa6, 0x00, 0x00, 0x00, 0x8f, 0x00, 0x00, 0x00,
  0xa3, 0xff, 0xff, 0xff, 0x9f, 0x00, 0x00, 0x00, 0x7f, 0xff, 0xff, 0xff,
  0x58, 0x00, 0x00, 0x00, 0xdd, 0xff, 0xff, 0xff, 0x8b, 0x00, 0x00, 0x00,
  0xb6, 0xfd, 0xff, 0xff, 0x04, 0x00, 0x00, 0x00, 0x40, 0x01, 0x00, 0x00,
  0x2f, 0xab, 0xbb, 0x09, 0x66, 0x0e, 0x74, 0x95, 0xf6, 0xcc, 0x17, 0x17,
  0x3f, 0x74, 0x37, 0xa5, 0xfc, 0xe2, 0xb3, 0x1a, 0x62, 0x9d, 0x49, 0x1b,
  0x89, 0x1e, 0x3f, 0x5e, 0xc1, 0x3c, 0x49, 0x58, 0xc7, 0x8d, 0x4c, 0x4c,
  0x3c, 0xd9, 0xce, 0x9e, 0xa3, 0x17, 0xcd, 0xca, 0x47, 0x1d, 0x4d, 0x63,
  0xd1, 0x29, 0xd5, 0xe5, 0x07, 0xc4, 0x9c, 0x3d, 0x7a, 0x30, 0xb8, 0xbe,
  0xbb, 0xd4, 0x72, 0xee, 0xed, 0x9c, 0x00, 0x6f, 0xd0, 0xc7, 0xd8, 0x1a,
  0xd3, 0xf9, 0x27, 0x3a, 0xe7, 0xa8, 0xf6, 0xb4, 0x5b, 0x9e, 0x9a, 0xad,
  0xcf, 0x4c, 0xff, 0x89, 0x78, 0xd4, 0xdc, 0x3d, 0xfd, 0x56, 0x0d, 0x47,
  0x43, 0x0f, 0x67, 0x00, 0xbb, 0x4f, 0xc0, 0xd4, 0xdf, 0x50, 0x6a, 0x37,
  0xaf, 0x9d, 0x00, 0xcd, 0xe4, 0xc9, 0x6f, 0x5a, 0x7a, 0x5f, 0xbb, 0xdd,
  0x23, 0xa0, 0x16, 0x11, 0xf6, 0x40, 0x48, 0x6f, 0xd5, 0x41, 0x9e, 0xd0,
  0xa8, 0x48, 0xd9, 0x21, 0x9c, 0x43, 0x60, 0x41, 0xe7, 0x32, 0x20, 0x99,
  0xce, 0x69, 0x4c, 0x3e, 0x9c, 0xfb, 0x61, 0xaa, 0xe9, 0xac, 0xed, 0x36,
  0x41, 0xb6, 0x25, 0x42, 0xa0, 0x49, 0xb4, 0x34, 0xde, 0x81, 0xf9, 0x4e,
  0x87, 0xca, 0x4e, 0x3b, 0xcc, 0x3f, 0xe3, 0xba, 0xd7, 0x3e, 0xb4, 0x01,
  0x84, 0x58, 0x40, 0xf6, 0xdb, 0x2b, 0xf3, 0x04, 0x0f, 0xb0, 0x8c, 0x4a,
  0x66, 0x31, 0xc5, 0xac, 0x55, 0x56, 0x07, 0xe2, 0xdf, 0x08, 0x47, 0x2f,
  0xaf, 0xd8, 0x0f, 0xe8, 0x41, 0xf2, 0xf4, 0xde, 0xf9, 0xe2, 0x05, 0x9d,
  0x47, 0x1f, 0xc5, 0x4c, 0x8f, 0x5b, 0xb6, 0x21, 0xed, 0x65, 0x2f, 0x47,
  0xf8, 0x5e, 0x61, 0x89, 0x7d, 0xdf, 0xc5, 0x73, 0x4b, 0xe9, 0x99, 0x3a,
  0x5f, 0x08, 0x12, 0x5a, 0x0c, 0x3d, 0xb9, 0xc0, 0x4b, 0x6a, 0xdd, 0x7e,
  0xa5, 0xcc, 0xd9, 0xf7, 0x46, 0x2c, 0x3d, 0x29, 0x5d, 0x23, 0x8b, 0xe8,
  0xde, 0x11, 0x65, 0x1b, 0xf8, 0x8f, 0xdf, 0x61, 0xa6, 0x4a, 0xce, 0xe1,
  0x1c, 0x9c, 0x25, 0x42, 0x74, 0xa3, 0x46, 0x8f, 0x1c, 0xd2, 0xc5, 0x7c,
  0x32, 0xb1, 0xf2, 0xfa, 0x51, 0x67, 0xe7, 0x0b, 0x4e, 0x9e, 0xbd, 0x37,
  0xae, 0xc3, 0x39, 0xe9, 0xe8, 0x5b, 0xff, 0x50, 0x75, 0x89, 0x9b, 0x08,
  0x28, 0xab, 0xc8, 0x00, 0x21, 0xa0, 0x32, 0xb4, 0x02, 0xff, 0xff, 0xff,
  0x04, 0x00, 0x00, 0x00, 0x28, 0x00, 0x00, 0x00, 0xad, 0xff, 0xff, 0xff,
  0x84, 0x00, 0x00, 0x00, 0x63, 0x00, 0x00, 0x00, 0x3c, 0x00, 0x00, 0x00,
  0x42, 0x00, 0x00, 0x00, 0xa7, 0xff, 0xff, 0xff, 0x63, 0x00, 0x00, 0x00,
  0x7d, 0x00, 0x00, 0x00, 0x50, 0x00, 0x00, 0x00, 0x9d, 0xff, 0xff, 0xff,
  0x36, 0xff, 0xff, 0xff, 0x04, 0x00, 0x00, 0x00, 0x14, 0x00, 0x00, 0x00,
  0x48, 0x96, 0x4b, 0x6e, 0x7f, 0xb2, 0xd6, 0x91, 0x0d, 0x58, 0x48, 0x11,
  0xe7, 0xe7, 0x9d, 0xfe, 0x87, 0x3b, 0x9d, 0x26, 0x56, 0xff, 0xff, 0xff,
  0x04, 0x00, 0x00, 0x00, 0x08, 0x00, 0x00, 0x00, 0xd5, 0xff, 0xff, 0xff,
  0x2b, 0x00, 0x00, 0x00, 0x38, 0xff, 0xff, 0xff, 0x3c, 0xff, 0xff, 0xff,
  0x0f, 0x00, 0x00, 0x00, 0x4d, 0x4c, 0x49, 0x52, 0x20, 0x43, 0x6f, 0x6e,
  0x76, 0x65, 0x72, 0x74, 0x65, 0x64, 0x2e, 0x00, 0x01, 0x00, 0x00, 0x00,
  0x14, 0x00, 0x00, 0x00, 0x00, 0x00, 0x0e, 0x00, 0x18, 0x00, 0x14, 0x00,
  0x10, 0x00, 0x0c, 0x00, 0x08, 0x00, 0x04, 0x00, 0x0e, 0x00, 0x00, 0x00,
  0x14, 0x00, 0x00, 0x00, 0x1c, 0x00, 0x00, 0x00, 0x28, 0x01, 0x00, 0x00,
  0x2c, 0x01, 0x00, 0x00, 0x30, 0x01, 0x00, 0x00, 0x04, 0x00, 0x00, 0x00,
  0x6d, 0x61, 0x69, 0x6e, 0x00, 0x00, 0x00, 0x00, 0x04, 0x00, 0x00, 0x00,
  0xd0, 0x00, 0x00, 0x00, 0x88, 0x00, 0x00, 0x00, 0x50, 0x00, 0x00, 0x00,
  0x14, 0x00, 0x00, 0x00, 0x00, 0x00, 0x0e, 0x00, 0x1a, 0x00, 0x14, 0x00,
  0x10, 0x00, 0x0c, 0x00, 0x0b, 0x00, 0x04, 0x00, 0x0e, 0x00, 0x00, 0x00,
  0x1c, 0x00, 0x00, 0x00, 0x00, 0x00, 0x00, 0x09, 0x1c, 0x00, 0x00, 0x00,
  0x20, 0x00, 0x00, 0x00, 0x01, 0x00, 0x00, 0x00, 0x00, 0x00, 0x06, 0x00,
  0x08, 0x00, 0x04, 0x00, 0x06, 0x00, 0x00, 0x00, 0x00, 0x00, 0x80, 0x3f,
  0x01, 0x00, 0x00, 0x00, 0x0a, 0x00, 0x00, 0x00, 0x01, 0x00, 0x00, 0x00,
  0x09, 0x00, 0x00, 0x00, 0x96, 0xff, 0xff, 0xff, 0x14, 0x00, 0x00, 0x00,
  0x00, 0x00, 0x00, 0x08, 0x10, 0x00, 0x00, 0x00, 0x14, 0x00, 0x00, 0x00,
  0x04, 0x00, 0x04, 0x00, 0x04, 0x00, 0x00, 0x00, 0x01, 0x00, 0x00, 0x00,
  0x09, 0x00, 0x00, 0x00, 0x03, 0x00, 0x00, 0x00, 0x08, 0x00, 0x00, 0x00,
  0x02, 0x00, 0x00, 0x00, 0x01, 0x00, 0x00, 0x00, 0xca, 0xff, 0xff, 0xff,
  0x10, 0x00, 0x00, 0x00, 0x00, 0x00, 0x00, 0x08, 0x10, 0x00, 0x00, 0x00,
  0x14, 0x00, 0x00, 0x00, 0xba, 0xff, 0xff, 0xff, 0x00, 0x00, 0x00, 0x01,
  0x01, 0x00, 0x00, 0x00, 0x08, 0x00, 0x00, 0x00, 0x03, 0x00, 0x00, 0x00,
  0x07, 0x00, 0x00, 0x00, 0x04, 0x00, 0x00, 0x00, 0x03, 0x00, 0x00, 0x00,
  0x00, 0x00, 0x0e, 0x00, 0x16, 0x00, 0x00, 0x00, 0x10, 0x00, 0x0c, 0x00,
  0x0b, 0x00, 0x04, 0x00, 0x0e, 0x00, 0x00, 0x00, 0x18, 0x00, 0x00, 0x00,
  0x00, 0x00, 0x00, 0x08, 0x18, 0x00, 0x00, 0x00, 0x1c, 0x00, 0x00, 0x00,
  0x00, 0x00, 0x06, 0x00, 0x08, 0x00, 0x07, 0x00, 0x06, 0x00, 0x00, 0x00,
  0x00, 0x00, 0x00, 0x01, 0x01, 0x00, 0x00, 0x00, 0x07, 0x00, 0x00, 0x00,
  0x03, 0x00, 0x00, 0x00, 0x00, 0x00, 0x00, 0x00, 0x06, 0x00, 0x00, 0x00,
  0x05, 0x00, 0x00, 0x00, 0x01, 0x00, 0x00, 0x00, 0x0a, 0x00, 0x00, 0x00,
  0x01, 0x00, 0x00, 0x00, 0x00, 0x00, 0x00, 0x00, 0x0b, 0x00, 0x00, 0x00,
  0xf8, 0x04, 0x00, 0x00, 0x68, 0x04, 0x00, 0x00, 0xfc, 0x03, 0x00, 0x00,
  0x80, 0x03, 0x00, 0x00, 0x14, 0x03, 0x00, 0x00, 0xa0, 0x02, 0x00, 0x00,
  0x34, 0x02, 0x00, 0x00, 0x98, 0x01, 0x00, 0x00, 0xf4, 0x00, 0x00, 0x00,
  0x70, 0x00, 0x00, 0x00, 0x04, 0x00, 0x00, 0x00, 0x4a, 0xfb, 0xff, 0xff,
  0x00, 0x00, 0x00, 0x01, 0x14, 0x00, 0x00, 0x00, 0x30, 0x00, 0x00, 0x00,
  0x0b, 0x00, 0x00, 0x00, 0x00, 0x00, 0x00, 0x09, 0x44, 0x00, 0x00, 0x00,
  0x34, 0xfb, 0xff, 0xff, 0x08, 0x00, 0x00, 0x00, 0x10, 0x00, 0x00, 0x00,
  0x01, 0x00, 0x00, 0x00, 0x80, 0xff, 0xff, 0xff, 0xff, 0xff, 0xff, 0xff,
  0x01, 0x00, 0x00, 0x00, 0x00, 0x00, 0x80, 0x3b, 0x19, 0x00, 0x00, 0x00,
  0x53, 0x74, 0x61, 0x74, 0x65, 0x66, 0x75, 0x6c, 0x50, 0x61, 0x72, 0x74,
  0x69, 0x74, 0x69, 0x6f, 0x6e, 0x65, 0x64, 0x43, 0x61, 0x6c, 0x6c, 0x3a,
  0x30, 0x00, 0x00, 0x00, 0x02, 0x00, 0x00, 0x00, 0x01, 0x00, 0x00, 0x00,
  0x02, 0x00, 0x00, 0x00, 0xb2, 0xfb, 0xff, 0xff, 0x00, 0x00, 0x00, 0x01,
  0x14, 0x00, 0x00, 0x00, 0x30, 0x00, 0x00, 0x00, 0x0a, 0x00, 0x00, 0x00,
  0x00, 0x00, 0x00, 0x09, 0x5c, 0x00, 0x00, 0x00, 0x9c, 0xfb, 0xff, 0xff,
  0x08, 0x00, 0x00, 0x00, 0x10, 0x00, 0x00, 0x00, 0x01, 0x00, 0x00, 0x00,
  0x01, 0x00, 0x00, 0x00, 0x00, 0x00, 0x00, 0x00, 0x01, 0x00, 0x00, 0x00,
  0xb5, 0xc8, 0x83, 0x3d, 0x32, 0x00, 0x00, 0x00, 0x73, 0x65, 0x71, 0x75,
  0x65, 0x6e, 0x74, 0x69, 0x61, 0x6c, 0x2f, 0x79, 0x5f, 0x70, 0x72, 0x65,
  0x64, 0x2f, 0x4d, 0x61, 0x74, 0x4d, 0x75, 0x6c, 0x3b, 0x73, 0x65, 0x71,
  0x75, 0x65, 0x6e, 0x74, 0x69, 0x61, 0x6c, 0x2f, 0x79, 0x5f, 0x70, 0x72,
  0x65, 0x64, 0x2f, 0x42, 0x69, 0x61, 0x73, 0x41, 0x64, 0x64, 0x00, 0x00,
  0x02, 0x00, 0x00, 0x00, 0x01, 0x00, 0x00, 0x00, 0x02, 0x00, 0x00, 0x00,
  0x32, 0xfc, 0xff, 0xff, 0x00, 0x00, 0x00, 0x01, 0x14, 0x00, 0x00, 0x00,
  0x34, 0x00, 0x00, 0x00, 0x09, 0x00, 0x00, 0x00, 0x00, 0x00, 0x00, 0x09,
  0x7c, 0x00, 0x00, 0x00, 0x1c, 0xfc, 0xff, 0xff, 0x08, 0x00, 0x00, 0x00,
  0x14, 0x00, 0x00, 0x00, 0x01, 0x00, 0x00, 0x00, 0x80, 0xff, 0xff, 0xff,
  0xff, 0xff, 0xff, 0xff, 0x00, 0x00, 0x00, 0x00, 0x01, 0x00, 0x00, 0x00,
  0x40, 0x84, 0x67, 0x3d, 0x4c, 0x00, 0x00, 0x00, 0x73, 0x65, 0x71, 0x75,
  0x65, 0x6e, 0x74, 0x69, 0x61, 0x6c, 0x2f, 0x64, 0x65, 0x6e, 0x73, 0x65,
  0x5f, 0x31, 0x2f, 0x4d, 0x61, 0x74, 0x4d, 0x75, 0x6c, 0x3b, 0x73, 0x65,
  0x71, 0x75, 0x65, 0x6e, 0x74, 0x69, 0x61, 0x6c, 0x2f, 0x64, 0x65, 0x6e,
  0x73, 0x65, 0x5f, 0x31, 0x2f, 0x52, 0x65, 0x6c, 0x75, 0x3b, 0x73, 0x65,
  0x71, 0x75, 0x65, 0x6e, 0x74, 0x69, 0x61, 0x6c, 0x2f, 0x64, 0x65, 0x6e,
  0x73, 0x65, 0x5f, 0x31, 0x2f, 0x42, 0x69, 0x61, 0x73, 0x41, 0x64, 0x64,
  0x00, 0x00, 0x00, 0x00, 0x02, 0x00, 0x00, 0x00, 0x01, 0x00, 0x00, 0x00,
  0x0a, 0x00, 0x00, 0x00, 0xd2, 0xfc, 0xff, 0xff, 0x00, 0x00, 0x00, 0x01,
  0x14, 0x00, 0x00, 0x00, 0x34, 0x00, 0x00, 0x00, 0x08, 0x00, 0x00, 0x00,
  0x00, 0x00, 0x00, 0x09, 0x74, 0x00, 0x00, 0x00, 0xbc, 0xfc, 0xff, 0xff,
  0x08, 0x00, 0x00, 0x00, 0x14, 0x00, 0x00, 0x00, 0x01, 0x00, 0x00, 0x00,
  0x80, 0xff, 0xff, 0xff, 0xff, 0xff, 0xff, 0xff, 0x00, 0x00, 0x00, 0x00,
  0x01, 0x00, 0x00, 0x00, 0x20, 0x95, 0x25, 0x3d, 0x46, 0x00, 0x00, 0x00,
  0x73, 0x65, 0x71, 0x75, 0x65, 0x6e, 0x74, 0x69, 0x61, 0x6c, 0x2f, 0x64,
  0x65, 0x6e, 0x73, 0x65, 0x2f, 0x4d, 0x61, 0x74, 0x4d, 0x75, 0x6c, 0x3b,
  0x73, 0x65, 0x71, 0x75, 0x65, 0x6e, 0x74, 0x69, 0x61, 0x6c, 0x2f, 0x64,
  0x65, 0x6e, 0x73, 0x65, 0x2f, 0x52, 0x65, 0x6c, 0x75, 0x3b, 0x73, 0x65,
  0x71, 0x75, 0x65, 0x6e, 0x74, 0x69, 0x61, 0x6c, 0x2f, 0x64, 0x65, 0x6e,
  0x73, 0x65, 0x2f, 0x42, 0x69, 0x61, 0x73, 0x41, 0x64, 0x64, 0x00, 0x00,
  0x02, 0x00, 0x00, 0x00, 0x01, 0x00, 0x00, 0x00, 0x20, 0x00, 0x00, 0x00,
  0x6a, 0xfd, 0xff, 0xff, 0x00, 0x00, 0x00, 0x01, 0x14, 0x00, 0x00, 0x00,
  0x34, 0x00, 0x00, 0x00, 0x07, 0x00, 0x00, 0x00, 0x00, 0x00, 0x00, 0x09,
  0x44, 0x00, 0x00, 0x00, 0x54, 0xfd, 0xff, 0xff, 0x08, 0x00, 0x00, 0x00,
  0x14, 0x00, 0x00, 0x00, 0x01, 0x00, 0x00, 0x00, 0x00, 0x00, 0x00, 0x00,
  0x00, 0x00, 0x00, 0x00, 0x00, 0x00, 0x00, 0x00, 0x01, 0x00, 0x00, 0x00,
  0xd5, 0x26, 0xe8, 0x3a, 0x17, 0x00, 0x00, 0x00, 0x73, 0x65, 0x71, 0x75,
  0x65, 0x6e, 0x74, 0x69, 0x61, 0x6c, 0x2f, 0x64, 0x65, 0x6e, 0x73, 0x65,
  0x2f, 0x4d, 0x61, 0x74, 0x4d, 0x75, 0x6c, 0x00, 0x02, 0x00, 0x00, 0x00,
  0x20, 0x00, 0x00, 0x00, 0x69, 0x00, 0x00, 0x00, 0xd2, 0xfd, 0xff, 0xff,
  0x00, 0x00, 0x00, 0x01, 0x14, 0x00, 0x00, 0x00, 0x30, 0x00, 0x00, 0x00,
  0x06, 0x00, 0x00, 0x00, 0x00, 0x00, 0x00, 0x02, 0x50, 0x00, 0x00, 0x00,
  0xbc, 0xfd, 0xff, 0xff, 0x08, 0x00, 0x00, 0x00, 0x10, 0x00, 0x00, 0x00,
  0x01, 0x00, 0x00, 0x00, 0x00, 0x00, 0x00, 0x00, 0x00, 0x00, 0x00, 0x00,
  0x01, 0x00, 0x00, 0x00, 0xc6, 0x27, 0xbd, 0x38, 0x27, 0x00, 0x00, 0x00,
  0x73, 0x65, 0x71, 0x75, 0x65, 0x6e, 0x74, 0x69, 0x61, 0x6c, 0x2f, 0x64,
  0x65, 0x6e, 0x73, 0x65, 0x2f, 0x42, 0x69, 0x61, 0x73, 0x41, 0x64, 0x64,
  0x2f, 0x52, 0x65, 0x61, 0x64, 0x56, 0x61, 0x72, 0x69, 0x61, 0x62, 0x6c,
  0x65, 0x4f, 0x70, 0x00, 0x01, 0x00, 0x00, 0x00, 0x20, 0x00, 0x00, 0x00,
  0x42, 0xfe, 0xff, 0xff, 0x00, 0x00, 0x00, 0x01, 0x14, 0x00, 0x00, 0x00,
  0x30, 0x00, 0x00, 0x00, 0x05, 0x00, 0x00, 0x00, 0x00, 0x00, 0x00, 0x09,
  0x44, 0x00, 0x00, 0x00, 0x2c, 0xfe, 0xff, 0xff, 0x08, 0x00, 0x00, 0x00,
  0x10, 0x00, 0x00, 0x00, 0x01, 0x00, 0x00, 0x00, 0x00, 0x00, 0x00, 0x00,
  0x00, 0x00, 0x00, 0x00, 0x01, 0x00, 0x00, 0x00, 0x41, 0xfc, 0x48, 0x3b,
  0x19, 0x00, 0x00, 0x00, 0x73, 0x65, 0x71, 0x75, 0x65, 0x6e, 0x74, 0x69,
  0x61, 0x6c, 0x2f, 0x64, 0x65, 0x6e, 0x73, 0x65, 0x5f, 0x31, 0x2f, 0x4d,
  0x61, 0x74, 0x4d, 0x75, 0x6c, 0x00, 0x00, 0x00, 0x02, 0x00, 0x00, 0x00,
  0x0a, 0x00, 0x00, 0x00, 0x20, 0x00, 0x00, 0x00, 0xaa, 0xfe, 0xff, 0xff,
  0x00, 0x00, 0x00, 0x01, 0x14, 0x00, 0x00, 0x00, 0x34, 0x00, 0x00, 0x00,
  0x04, 0x00, 0x00, 0x00, 0x00, 0x00, 0x00, 0x02, 0x58, 0x00, 0x00, 0x00,
  0x94, 0xfe, 0xff, 0xff, 0x08, 0x00, 0x00, 0x00, 0x14, 0x00, 0x00, 0x00,
  0x01, 0x00, 0x00, 0x00, 0x00, 0x00, 0x00, 0x00, 0x00, 0x00, 0x00, 0x00,
  0x00, 0x00, 0x00, 0x00, 0x01, 0x00, 0x00, 0x00, 0xaa, 0xff, 0x01, 0x39,
  0x29, 0x00, 0x00, 0x00, 0x73, 0x65, 0x71, 0x75, 0x65, 0x6e, 0x74, 0x69,
  0x61, 0x6c, 0x2f, 0x64, 0x65, 0x6e, 0x73, 0x65, 0x5f, 0x31, 0x2f, 0x42,
  0x69, 0x61, 0x73, 0x41, 0x64, 0x64, 0x2f, 0x52, 0x65, 0x61, 0x64, 0x56,
  0x61, 0x72, 0x69, 0x61, 0x62, 0x6c, 0x65, 0x4f, 0x70, 0x00, 0x00, 0x00,
  0x01, 0x00, 0x00, 0x00, 0x0a, 0x00, 0x00, 0x00, 0x22, 0xff, 0xff, 0xff,
  0x00, 0x00, 0x00, 0x01, 0x14, 0x00, 0x00, 0x00, 0x30, 0x00, 0x00, 0x00,
  0x03, 0x00, 0x00, 0x00, 0x00, 0x00, 0x00, 0x09, 0x44, 0x00, 0x00, 0x00,
  0x0c, 0xff, 0xff, 0xff, 0x08, 0x00, 0x00, 0x00, 0x10, 0x00, 0x00, 0x00,
  0x01, 0x00, 0x00, 0x00, 0x00, 0x00, 0x00, 0x00, 0x00, 0x00, 0x00, 0x00,
  0x01, 0x00, 0x00, 0x00, 0xf3, 0x15, 0xb5, 0x3b, 0x18, 0x00, 0x00, 0x00,
  0x73, 0x65, 0x71, 0x75, 0x65, 0x6e, 0x74, 0x69, 0x61, 0x6c, 0x2f, 0x79,
  0x5f, 0x70, 0x72, 0x65, 0x64, 0x2f, 0x4d, 0x61, 0x74, 0x4d, 0x75, 0x6c,
  0x00, 0x00, 0x00, 0x00, 0x02, 0x00, 0x00, 0x00, 0x02, 0x00, 0x00, 0x00,
  0x0a, 0x00, 0x00, 0x00, 0x8a, 0xff, 0xff, 0xff, 0x00, 0x00, 0x00, 0x01,
  0x14, 0x00, 0x00, 0x00, 0x30, 0x00, 0x00, 0x00, 0x02, 0x00, 0x00, 0x00,
  0x00, 0x00, 0x00, 0x02, 0x54, 0x00, 0x00, 0x00, 0x74, 0xff, 0xff, 0xff,
  0x08, 0x00, 0x00, 0x00, 0x10, 0x00, 0x00, 0x00, 0x01, 0x00, 0x00, 0x00,
  0x00, 0x00, 0x00, 0x00, 0x00, 0x00, 0x00, 0x00, 0x01, 0x00, 0x00, 0x00,
  0x5b, 0xc4, 0xa3, 0x39, 0x28, 0x00, 0x00, 0x00, 0x73, 0x65, 0x71, 0x75,
  0x65, 0x6e, 0x74, 0x69, 0x61, 0x6c, 0x2f, 0x79, 0x5f, 0x70, 0x72, 0x65,
  0x64, 0x2f, 0x42, 0x69, 0x61, 0x73, 0x41, 0x64, 0x64, 0x2f, 0x52, 0x65,
  0x61, 0x64, 0x56, 0x61, 0x72, 0x69, 0x61, 0x62, 0x6c, 0x65, 0x4f, 0x70,
  0x00, 0x00, 0x00, 0x00, 0x01, 0x00, 0x00, 0x00, 0x02, 0x00, 0x00, 0x00,
  0x00, 0x00, 0x16, 0x00, 0x1c, 0x00, 0x18, 0x00, 0x17, 0x00, 0x10, 0x00,
  0x0c, 0x00, 0x08, 0x00, 0x00, 0x00, 0x00, 0x00, 0x00, 0x00, 0x07, 0x00,
  0x16, 0x00, 0x00, 0x00, 0x00, 0x00, 0x00, 0x01, 0x20, 0x00, 0x00, 0x00,
  0x40, 0x00, 0x00, 0x00, 0x01, 0x00, 0x00, 0x00, 0x00, 0x00, 0x00, 0x09,
  0x4c, 0x00, 0x00, 0x00, 0x0c, 0x00, 0x0c, 0x00, 0x00, 0x00, 0x00, 0x00,
  0x08, 0x00, 0x04, 0x00, 0x0c, 0x00, 0x00, 0x00, 0x08, 0x00, 0x00, 0x00,
  0x14, 0x00, 0x00, 0x00, 0x01, 0x00, 0x00, 0x00, 0xda, 0xff, 0xff, 0xff,
  0xff, 0xff, 0xff, 0xff, 0x00, 0x00, 0x00, 0x00, 0x01, 0x00, 0x00, 0x00,
  0x37, 0x96, 0x50, 0x3d, 0x13, 0x00, 0x00, 0x00, 0x73, 0x65, 0x72, 0x76,
  0x69, 0x6e, 0x67, 0x5f, 0x64, 0x65, 0x66, 0x61, 0x75, 0x6c, 0x74, 0x5f,
  0x78, 0x3a, 0x30, 0x00, 0x02, 0x00, 0x00, 0x00, 0x01, 0x00, 0x00, 0x00,
  0x69, 0x00, 0x00, 0x00, 0x02, 0x00, 0x00, 0x00, 0x24, 0x00, 0x00, 0x00,
  0x04, 0x00, 0x00, 0x00, 0xf0, 0xff, 0xff, 0xff, 0x19, 0x00, 0x00, 0x00,
  0x02, 0x00, 0x00, 0x00, 0x00, 0x00, 0x00, 0x19, 0x0c, 0x00, 0x10, 0x00,
  0x0f, 0x00, 0x00, 0x00, 0x08, 0x00, 0x04, 0x00, 0x0c, 0x00, 0x00, 0x00,
  0x09, 0x00, 0x00, 0x00, 0x04, 0x00, 0x00, 0x00, 0x00, 0x00, 0x00, 0x09
};
unsigned int tflite_learn_893344_3_len = 6240;
#endif // _EI_CLASSIFIER_TFLITE_LEARN_893344_3_H_
